#include <stdio.h>
#include <stdint.h>
#include <stdbool.h>
#include "ee194_softfloat.h"

bf16 e4m3_mac(e4m3 *activations, e4m3 *weights, size_t N, e4m3 bias);

bool run_mac_test(
	const uint8_t *act_hex,
	const uint8_t *weight_hex,
	size_t N,
	uint8_t bias_hex,
	uint16_t expected_result);

int main(void)
{
	e4m3 acts[32];
	// Row-major weights as provided
	uint8_t act_vals[32] = {0x6a, 0x1c, 0xae, 0x9f, 0x23, 0xd3, 0x68, 0x57, 0xcf, 0x15, 0xf0, 0x1d, 0xed, 0x3e, 0xef, 0xcc, 0xda, 0x73, 0xeb, 0x4d, 0x5b, 0x4e, 0x63, 0x42, 0xfe, 0xce, 0x12, 0x2b, 0x2a, 0xc4, 0x2e, 0x0e};

	uint8_t weight_vals_row[16][32] = {
		{0xac, 0x64, 0x32, 0x0f, 0xec, 0xef, 0x58, 0x41, 0x6d, 0x78, 0x77, 0x4a, 0x2d, 0x2e, 0x14, 0xec, 0xc7, 0xba, 0x55, 0xf3, 0x8e, 0x9d, 0x19, 0x28, 0xc4, 0x54, 0x0e, 0xa4, 0x0d, 0xa6, 0x49, 0xd0}, // row 0
		{0xf5, 0xf2, 0xcd, 0x35, 0xb4, 0x96, 0x93, 0x19, 0x30, 0x37, 0x2a, 0x9f, 0x90, 0x5b, 0x14, 0x8c, 0xfa, 0x10, 0x68, 0x52, 0x1c, 0xb7, 0xf1, 0x3e, 0x63, 0xbe, 0x5d, 0x45, 0xf2, 0x22, 0x97, 0x74}, // row 1
		{0x59, 0x8d, 0x6c, 0x3d, 0x8b, 0xef, 0x6b, 0x3b, 0xcd, 0x11, 0xc0, 0xc7, 0xee, 0x4f, 0xd2, 0xcf, 0x4b, 0x08, 0xe2, 0x2a, 0x0e, 0xe9, 0x4e, 0x17, 0x5a, 0xe3, 0xbc, 0x69, 0x7d, 0xc9, 0xcd, 0x19}, // row 2
		{0x94, 0x70, 0x78, 0x94, 0x20, 0xfc, 0xd2, 0xa3, 0x9f, 0x1d, 0xb3, 0x11, 0xb0, 0x76, 0xd5, 0xe8, 0x92, 0xe3, 0x2a, 0xa4, 0xb0, 0x96, 0x0a, 0x53, 0x57, 0xd5, 0xa2, 0xf9, 0xcd, 0x37, 0xdf, 0x94}, // row 3
		{0xda, 0xf5, 0x93, 0x6e, 0xd4, 0xf4, 0xa4, 0x8c, 0xf1, 0xa8, 0x49, 0x74, 0xf0, 0x9a, 0xc0, 0xcc, 0x1b, 0x5d, 0x8d, 0x0c, 0xc2, 0xd8, 0xcb, 0xde, 0x77, 0x1f, 0xde, 0xf0, 0x5e, 0xac, 0xe2, 0x32}, // row 4
		{0xdb, 0x3b, 0xca, 0x2d, 0x7c, 0xdd, 0x48, 0xfa, 0xcb, 0x2a, 0xcf, 0xa4, 0x54, 0x13, 0x4e, 0xe0, 0xcb, 0xdd, 0x4e, 0xd7, 0x5d, 0x3a, 0xa1, 0xcd, 0x55, 0xcc, 0x68, 0x53, 0x68, 0xa5, 0x2f, 0x51}, // row 5
		{0xf3, 0x80, 0x28, 0x19, 0xa9, 0xa9, 0xec, 0x8e, 0x76, 0x9e, 0xa7, 0x12, 0x77, 0x65, 0xbd, 0x24, 0xc2, 0x1a, 0xbe, 0x26, 0x17, 0xfa, 0x2e, 0xc7, 0x51, 0x9b, 0x0b, 0x79, 0x75, 0x41, 0x6d, 0x69}, // row 6
		{0xb2, 0x15, 0xd7, 0x5f, 0x33, 0x8f, 0x57, 0x68, 0x3c, 0x7d, 0xc5, 0x2e, 0x0f, 0x8c, 0x29, 0x39, 0x0d, 0x73, 0xc1, 0x90, 0x1a, 0x34, 0x67, 0xf3, 0x5b, 0x1b, 0x43, 0xb6, 0xf0, 0x47, 0x5c, 0xb9}, // row 7
		{0x9f, 0x1f, 0x24, 0x80, 0x55, 0x7e, 0x45, 0x60, 0x1d, 0xe9, 0x79, 0x6a, 0x58, 0x47, 0x43, 0xe4, 0xab, 0x42, 0x2c, 0x6b, 0xcc, 0xb7, 0xdd, 0x14, 0x3a, 0xda, 0x72, 0xa6, 0xe9, 0x89, 0x61, 0x97}, // row 8
		{0x33, 0xd1, 0xa7, 0x7a, 0x7d, 0xfa, 0xdc, 0xd4, 0xce, 0xb7, 0x1a, 0xc3, 0x10, 0xf0, 0x0a, 0x9e, 0x89, 0xc5, 0xd9, 0xaf, 0x1c, 0xe5, 0x57, 0x5e, 0x6b, 0x4b, 0xf8, 0xfb, 0x7a, 0xf7, 0x3b, 0x2f}, // row 9
		{0x2f, 0xbe, 0x62, 0xaa, 0x8d, 0x8b, 0xfa, 0x71, 0xc8, 0xe2, 0xb1, 0xa9, 0x5e, 0x46, 0xb9, 0x1c, 0x6e, 0xa7, 0x6a, 0x0a, 0xce, 0xf6, 0x93, 0xab, 0xd3, 0x35, 0x63, 0xfa, 0x73, 0x8a, 0x2b, 0xd5}, // row 10
		{0xe1, 0xd1, 0xb1, 0xb6, 0x0d, 0xcb, 0xc7, 0xe4, 0xd7, 0xbb, 0xbd, 0x46, 0x65, 0x1b, 0xaf, 0x48, 0x09, 0x58, 0xc7, 0x3b, 0xa6, 0xce, 0x55, 0xa3, 0xa2, 0xb7, 0x20, 0x43, 0xba, 0x23, 0xed, 0x26}, // row 11
		{0x64, 0x5f, 0xf4, 0xc6, 0x4a, 0xbe, 0xd8, 0x2c, 0xc1, 0x5a, 0x61, 0xfc, 0x7a, 0x6a, 0x17, 0xbf, 0xf3, 0xb1, 0x5f, 0x29, 0x0a, 0x6a, 0x54, 0xef, 0x62, 0x8f, 0xd6, 0x51, 0x93, 0x88, 0x8a, 0x1f}, // row 12
		{0x54, 0x3a, 0x9f, 0x26, 0xad, 0xfb, 0x9e, 0x64, 0x6b, 0xc4, 0xc7, 0x98, 0x5e, 0x59, 0xc9, 0xab, 0x29, 0x96, 0xf6, 0x20, 0x3e, 0xab, 0x11, 0xbc, 0x7a, 0x0c, 0xfd, 0xd4, 0xa9, 0xa0, 0x3f, 0xcc}, // row 13
		{0xac, 0xe1, 0xa6, 0x77, 0x13, 0x54, 0x96, 0x75, 0x77, 0x9b, 0x5b, 0xc0, 0x99, 0x67, 0x39, 0xc1, 0xce, 0x98, 0x19, 0x24, 0xfd, 0xcc, 0x88, 0x8a, 0x70, 0x4d, 0x48, 0x1f, 0x18, 0xaf, 0xf7, 0xdc}, // row 14
		{0xeb, 0x94, 0x90, 0x8f, 0xe0, 0xbc, 0xfb, 0xa2, 0xc4, 0xa4, 0x1c, 0xe4, 0x14, 0x68, 0xe9, 0x4e, 0x33, 0x20, 0x39, 0xc1, 0x2b, 0x14, 0x77, 0xa7, 0x5d, 0xcc, 0xc8, 0xbc, 0xaa, 0x1a, 0x0f, 0xb7}  // row 15
	};

	uint8_t bias[16] = {0x00, 0x00, 0x00, 0x00, 0x00, 0x00, 0x00, 0x00, 0x00, 0x00, 0x00, 0x00, 0x00, 0x00, 0x00, 0x00};

	// Convert to column-major storage: [col][row]
	uint8_t weight_vals[32][16];

	for (int r = 0; r < 16; r++) {
		for (int c = 0; c < 32; c++) {
			weight_vals[c][r] = weight_vals_row[r][c];
		}
	}

	uint16_t expected_results[16] = {0xc6e9, 0xc724, 0x467f, 0xc606, 0xc7ae, 0xc687, 0xc74d, 0x46c9, 0xc72a, 0xc70b, 0xc6d4, 0xc5a0, 0xc748, 0xc7ec, 0xc785, 0xc6ac};
	int failed = 0;
	for (int i = 0; i < 16; i++) {
		// Extract column-major row i into a contiguous temp buffer
		uint8_t weight_row[32];
		for (int c = 0; c < 32; c++) {
			weight_row[c] = weight_vals[c][i];
		}

		bool pass = run_mac_test(
			act_vals,
			weight_row,
			32,
			bias[i],
			expected_results[i]
		);

		if (!pass) {
			printf("Test %d FAILED\n", i);
			failed += 1;
		} else {
			printf("Test %d PASSED\n", i);
		}
	}

	printf("failed %d of 16 tests.\n", failed);

	return 0;
}

bf16 e4m3_mac(e4m3 *activations, e4m3 *weights, size_t N, e4m3 bias)
{
	// convert numbers
	fp16 *activations_fp16 = malloc(sizeof(fp16) * N);
	fp16 *weights_fp16 = malloc(sizeof(fp16) * N);

	for (int i = 0; i < N; i++)
	{
		activations_fp16[i] = e4m3_to_fp16(activations[i]);
		weights_fp16[i] = e4m3_to_fp16(weights[i]);
	}

	fp16 *products = malloc(sizeof(fp16) * N);
	printf("\n");
	// perform element wise multiplication
	for (int i = 0; i < N; i++)
	{
		products[i] = mul_fp16(activations_fp16[i], weights_fp16[i]);
		printf("0x%x * %x = 0x%x\n", activations_fp16[i].half, weights_fp16[i].half, products[i].half);
	}

	int16_t anchor = generate_anchor_fp16(products, N, bias);
	uint32_t *fixed_point_products = malloc(sizeof(uint32_t) * N);
	// printf("anchor: %d\n", anchor);
	for (int i = 0; i < N; i++)
	{
		fixed_point_products[i] = fp16_to_int_align(products[i], anchor);
	
	}

	uint32_t fixed_point_bias = e4m3_to_int_align(bias, anchor);

	uint32_t reduction = fixed_point_int_reduction(fixed_point_products, N, fixed_point_bias);
	

	bf16 result = int_to_bf16(reduction, anchor);


	return result;
}

bool run_mac_test(
	const uint8_t *act_hex,
	const uint8_t *weight_hex,
	size_t N,
	uint8_t bias_hex,
	uint16_t expected_result)
{
	e4m3 *activations = malloc(sizeof(e4m3) * N);
	e4m3 *weights = malloc(sizeof(e4m3) * N);

	// Populate vectors from hex inputs
	for (size_t i = 0; i < N; i++)
	{
		activations[i].byte = act_hex[i];
		weights[i].byte = weight_hex[i];
	}

	e4m3 bias;
	bias.byte = bias_hex;

	bf16 result = e4m3_mac(activations, weights, N, bias);

	bool passed = (result.half == expected_result);
	if (!passed)
		printf("Expected: 0x%04x, Got: 0x%04x\n", expected_result, result);

	free(activations);
	free(weights);

	return passed;
}