000020b7
00002137
40010113
000031b7
80018193
00003237
40000293
00001337
80030313
000033b7
c0038393
00003437
40040413
00200493
00200513
000015b7
80058593
00001637
000036b7
00000713
00001a37
00000913
0000007f
0000107f
0000007f
0000107f
00058793
00060813
00068893
00000993
005700fb
0057917b
0000007f
006801fb
00008007
02201067
0000107f
00010107
02201067
0000007f
00018207
02201067
02018287
02201067
00004077
02001067
14000077
06001067
10000377
02001067
0020c457
04201067
00022407
02201067
02022487
02201067
026208fb
0000007f
40078793
00680833
006888b3
00198993
fea9c0e3
00000013
00000013
40070713
01460633
014686b3
00190913
fc994ae3
00000013
00000013
