000020b7
00003137
80010113
000031b7
00001237
80020213
40000293
00107003
0000007f
0000107f
0000007f
0000107f
00000313
000013b7
80038393
004300fb
0043917b
0000007f
00008007
02201067
02008087
02201067
0000107f
00010107
02201067
02010187
02201067
00100257
04201067
88008357
04201067
0001a307
02201067
00001437
0251847b
0000007f
