000020b7
00002137
40010113
000031b7
80018193
00003237
00000293
40000313
000013b7
80038393
00001437
40000493
00001537
80050513
0000007f
0000007f
009280fb
0093117b
00a3a1fb
0000007f
0000107f
00008007
02201067
00010107
02201067
00004077
02001067
14000077
0000207f
00018207
02201067
02018287
02201067
10000377
02001067
0020c457
04201067
00022407
02201067
02022487
02201067
02a2047b
0000007f
