000020b7
00002137
40010013
000031b7
80018013
00003237
00000013
40000013
000013b7
80038013
00001437
40000013
00001537
80050013
0200007f
0200007f
009280fb
0093117b
0200007f
0200107f
00a381fb
0200007f
00008007
02201167
00010107
02201167
00018207
02201167
02018287
02201167
00004077
02001067
14000077
06001067
10000377
02001067
0020c457
04201167
00022407
02201167
02022487
02201167
02a2047b
0200007f
